00
00
00
00
01
00
00
00
ff
00
fe
00
f0
02
fc
00
f8
fa
f6
fe
f5
06
04
04
ef
02
ef
01
e4
04
f2
0b
ea
fe
f6
05
f5
fc
f1
00
01
fe
fc
00
ff
00
00
00
00
00
00
00
00
00
00
00
f9
01
fb
01
f2
02
f3
03
02
f6
06
06
01
fc
f7
ec
fc
0d
f1
03
f9
02
04
0c
f8
ff
07
21
fc
f1
ff
10
fb
f2
f8
0f
f5
f7
0c
01
f7
02
ed
09
f7
fd
ff
ff
00
00
00
00
fe
fe
f5
fb
ef
f3
f4
ef
f1
fc
f6
db
fb
f7
fb
e5
05
f9
ff
e9
fd
08
fd
fa
fc
f5
f7
04
00
fc
f9
06
01
f5
f0
02
03
f4
df
02
00
06
e2
f6
df
f0
ff
f1
01
00
00
00
ec
ff
ee
f9
f7
f0
00
f3
08
e2
04
ec
09
02
07
e5
04
fc
f6
fd
0c
02
00
e8
1a
f6
00
fb
26
ff
fe
0b
1b
fc
fe
f4
08
02
0b
07
09
06
de
f7
fd
fd
fc
e8
0c
03
0c
0b
00
f1
fb
ff
fd
07
04
f8
f8
f6
f8
ea
0b
f9
06
f7
08
01
04
e8
06
f4
00
dd
0d
fc
f5
ee
20
05
f1
fc
1b
fc
ff
f1
09
fd
09
e3
f9
f8
21
ec
f1
f7
fc
de
08
06
0d
08
f7
04
fb
fb
00
03
0a
f5
05
09
05
df
04
00
0c
e7
fb
f9
08
d9
f0
10
f7
ee
e6
e2
10
ea
ff
f2
0b
f6
0e
f2
09
eb
17
06
15
f7
fc
01
26
f0
ef
f3
06
e6
f8
03
02
03
11
04
0a
fc
0a
02
1a
f6
08
0f
1a
da
05
0a
25
de
08
00
14
cf
df
02
fb
d5
c3
cc
21
f3
eb
ea
10
eb
05
01
01
f1
06
f7
1a
e4
10
fe
1d
ed
02
05
03
db
f5
f9
e9
f5
07
0f
10
07
09
07
17
f5
03
09
20
eb
0b
0c
14
cc
0a
0e
1e
e0
d2
dd
17
d9
df
c2
14
d3
eb
ea
19
e4
04
fd
06
f1
08
0c
10
f3
0d
14
15
01
12
10
f5
f6
f8
fb
f7
fd
fc
fe
0b
09
04
06
15
f8
0f
02
11
f5
02
0e
1c
f2
f8
05
ff
da
d8
de
1d
d3
e6
e7
15
ef
06
08
0d
08
f8
04
1d
f0
04
fd
06
f4
0c
0b
ff
fa
03
fd
ff
ee
02
ff
fb
05
fd
fb
03
00
fa
fb
ff
fc
fb
09
08
f5
12
04
02
0a
05
03
12
09
f2
f2
ee
f8
fa
fd
13
fd
00
00
fe
f2
01
fc
0f
f5
02
07
12
fc
09
0d
f7
f5
01
fc
ff
07
02
01
fc
01
f7
f8
f6
fd
04
03
07
fb
03
ed
f2
03
04
08
03
0c
0d
02
f8
11
f6
f5
e9
12
f8
fc
f4
00
f2
f9
e8
e7
f8
00
fd
f5
fa
07
04
f7
fc
05
ce
ec
e9
ec
00
f2
00
01
01
01
fe
e7
f0
e6
fc
06
fd
05
fc
04
f8
03
1c
08
f2
17
10
05
fa
10
13
0e
f1
16
05
03
c4
08
02
09
cd
0c
e8
06
c6
f7
f2
00
d2
00
fe
fc
e1
f7
ed
f5
00
f5
00
00
00
00
00
0d
0d
0a
fe
00
eb
f9
df
01
f4
f0
e3
0b
d6
fa
eb
0d
d7
f4
e0
17
c8
f0
da
12
9e
f4
e9
0a
cc
f8
d8
e6
cd
ce
e7
f3
f7
ed
fb
fc
fe
fa
ff
00
00
00
00
00
00
00
00
00
00
00
fe
00
ff
00
f8
00
f8
00
f2
00
f0
00
10
fd
0c
03
04
07
06
fc
0d
fd
fe
ff
02
f5
f2
00
07
01
0e
00
f8
fd
f1
00
ff
ff
00
00
00
00
00
00
02
00
03
03
0d
01
04
fd
03
fe
0a
fe
03
01
ff
fc
0a
0e
11
ff
09
0f
21
fb
13
12
2d
e9
f6
00
39
cf
f1
ee
25
fa
f5
f8
1e
fa
ef
08
05
fe
ed
f7
ff
fb
f4
fc
fc
fb
fe
02
02
02
13
f9
18
0c
03
0d
fc
16
f9
f5
ec
05
08
e0
02
f8
04
eb
15
e9
f2
fd
1f
e3
f6
01
19
c3
f3
fc
1b
bf
02
06
28
c8
08
07
32
e4
f2
01
10
dd
f4
f7
ff
f6
fd
00
fd
fe
f6
14
ff
06
06
f4
f2
f5
f8
f8
f8
eb
f7
f0
f9
06
01
e2
00
f1
02
db
f3
d5
ef
f6
01
c8
ee
f0
0f
ba
fd
0b
05
d3
fe
02
18
f0
f1
00
f9
e4
db
ee
ff
e0
00
ff
fe
ff
f2
fe
e8
f2
03
fc
f8
fb
fa
04
ec
0b
00
ec
f6
0a
ef
e3
f2
f1
1d
f6
00
e4
17
0f
05
e6
f9
f9
ec
b5
fa
04
ee
e2
ea
fb
10
f6
f9
f6
06
f0
f8
fa
05
f8
00
00
ff
00
fd
03
f3
f7
e2
02
f7
e7
ff
f4
f4
f3
e8
f6
f1
03
f4
f2
ff
f7
25
11
ff
dc
1e
1e
fd
de
fd
06
ec
c8
ff
05
11
fe
ff
00
11
00
fc
fc
04
02
fd
fe
05
01
08
00
08
03
07
03
08
0d
0f
fb
f3
04
fd
13
0d
0c
ec
0c
ea
e7
fe
06
20
f6
1a
20
1f
d7
20
2c
1d
e5
eb
f6
10
c8
ef
f8
1c
f3
ef
fe
02
ff
fb
f7
f4
02
00
ff
00
ff
00
07
0a
05
03
04
fd
04
fd
fa
f3
f0
05
07
f9
17
f2
f3
06
f7
01
f7
10
d5
21
18
19
01
0b
25
15
ef
d8
e0
f7
cc
d1
e3
ff
de
d7
fb
e9
09
e5
03
01
08
0b
05
f8
01
fe
00
ff
00
da
02
e3
fe
d2
fb
e7
ee
e5
eb
f3
f9
d6
ee
ef
ee
f6
e7
f0
ea
13
20
08
0c
00
07
ea
e1
e3
d9
0b
c9
ff
03
f4
04
01
ff
ef
17
04
f5
0a
fd
ff
03
fe
e9
04
fd
ff
fe
e2
fc
e1
fd
f1
ef
06
0c
fc
ef
ff
14
02
db
ff
f7
0e
f0
fb
fb
0e
0b
fb
ec
02
e5
e0
e2
09
01
db
17
15
16
d8
20
f8
00
f3
13
11
ee
0b
fd
1e
17
06
16
05
08
06
03
2d
fb
0a
1a
01
32
0c
1b
09
14
0b
09
fa
10
06
04
f1
05
f5
e6
fa
ec
f1
e1
01
fd
da
05
19
16
e5
26
1b
1e
dd
12
06
15
f2
09
ee
fd
16
04
16
13
04
1a
ff
fc
fa
fc
eb
2f
0e
10
08
16
00
13
ff
02
0f
07
f6
fc
14
02
ff
e8
23
fe
0b
f0
21
01
1b
ff
1c
03
0c
fb
2b
1d
f8
07
1d
17
08
08
f9
09
e9
f6
fe
eb
05
07
00
09
00
ff
ff
ff
ff
f2
e8
f5
fc
ed
ef
e8
08
f7
14
fb
fd
06
f4
f4
ee
f9
f1
eb
04
ff
ee
00
fc
00
09
e6
db
fd
0e
f4
fc
00
f8
fd
fe
fc
fd
fc
fc
fa
fa
fa
fd
fe
00
fe
00
00
00
00
01
00
00
00
01
00
04
00
0c
fc
08
00
1b
08
1c
02
0f
08
00
05
06
05
f5
12
0f
08
fd
24
04
10
ee
ff
ec
f8
e3
f8
07
01
06
fc
03
01
09
fe
02
00
00
00
05
00
02
00
f4
00
02
01
f9
00
ff
05
02
f5
f1
1d
04
01
f4
1e
0f
f9
f5
18
05
01
ee
20
07
fb
e3
2c
0a
07
e9
06
08
f0
ca
f5
05
0e
e9
f6
e7
04
fd
f2
fa
00
01
ff
0b
01
0a
04
07
0d
fe
fa
fd
f8
fe
fe
fd
f3
f3
02
f8
07
eb
15
05
03
ef
12
11
fc
ee
11
0c
fb
e9
12
14
01
e1
0a
07
08
ca
07
17
12
de
e5
05
0c
ce
d4
f6
02
02
f0
03
0b
09
06
ee
0e
f9
08
f4
09
ee
02
f5
f4
f4
1d
06
fb
ff
0d
02
fc
fe
0f
13
ff
fc
19
02
f0
fe
10
fc
fd
06
02
00
fa
06
eb
02
fa
ec
d2
0a
12
f0
c8
ed
fa
f4
f8
f8
ff
fc
fb
19
05
fb
0c
ee
09
f8
11
e8
f4
ed
14
ed
0a
ec
16
f7
fe
db
15
01
fc
eb
1c
15
f1
09
09
03
ff
0b
f5
fd
02
13
df
eb
f5
20
e2
ef
fa
ff
ed
d6
e5
07
01
fa
07
f1
fc
f4
0a
e6
f1
e4
10
d5
1a
e7
f2
c6
36
ed
f3
cf
24
ed
f7
e2
21
e8
f0
f4
12
f2
fc
09
00
ef
eb
25
d9
fc
0b
25
ed
eb
ee
2d
e8
e4
f9
24
f1
f4
f8
44
11
ea
01
e4
fa
ec
0f
e3
f4
fe
08
fa
fc
fb
fd
06
09
fd
03
f4
02
fb
01
ff
07
00
0b
fd
fe
f1
fa
06
f2
e3
f6
22
eb
e9
fc
1b
e5
cf
f1
05
f7
f0
05
1d
2e
0e
05
21
35
15
f4
0b
eb
04
0b
0b
ef
ff
17
14
ed
fa
0d
0b
e2
00
24
17
e3
06
23
0b
e0
09
1e
07
f1
f9
12
05
fb
ea
02
fe
ef
e6
00
02
ff
fd
e8
f7
27
ee
fa
e6
3a
2c
16
1e
4e
0d
14
17
0e
0f
0b
07
17
0c
0c
12
fc
ff
25
1a
e8
00
13
1e
e1
06
1b
17
fc
08
28
01
ef
f2
07
fc
02
e0
07
f8
11
ee
06
db
25
01
09
d8
3b
09
f5
dd
2a
1f
12
17
42
0a
14
04
04
09
0d
09
08
06
07
12
f5
09
11
17
f1
08
14
0a
f3
ff
16
11
ed
09
14
07
fe
ff
0d
01
0e
05
06
ea
2e
05
00
ef
36
0f
01
ee
3f
fb
02
db
36
03
0e
fa
18
12
0d
1e
1a
fd
fc
0b
09
f5
fa
0c
f6
fa
fd
06
f3
fc
08
05
fa
fc
ff
f2
f3
fa
0a
ea
05
07
02
fc
0d
15
05
ed
27
2a
02
da
35
20
fb
e9
23
07
f7
12
1e
13
08
fe
20
ed
09
f8
ff
ec
04
f3
01
fb
0f
06
0a
04
04
05
04
04
f8
ea
fa
06
f6
e0
fe
fd
05
d2
04
0b
02
c9
07
2a
13
de
18
24
02
f3
15
16
02
01
12
06
fb
f8
02
fe
fa
02
fc
00
f5
f0
f9
ee
e6
dd
e4
e9
e8
e5
e7
e0
fe
df
ed
da
03
d0
e1
df
0e
c8
fe
0e
02
bf
11
0d
08
ae
0d
10
11
b0
17
f5
09
d3
f4
03
07
f4
fc
fa
f9
00
f0
00
02
00
02
00
00
00
00
ff
00
00
00
03
00
ff
00
0d
09
19
00
fe
fc
fa
fd
fc
04
06
fb
0f
fa
04
ff
05
05
07
ff
fe
02
0a
00
fb
04
0a
fe
f7
fe
f3
fe
00
ff
fe
00
00
00
00
00
fb
00
fe
00
0c
00
0f
04
0c
04
06
04
fb
0b
01
03
04
ff
f1
14
13
fc
eb
1e
10
fb
e8
2e
0f
0c
f6
1c
04
ff
df
02
1a
19
d7
ec
14
f3
dc
e6
f5
09
fb
fc
fd
fe
00
ff
04
00
01
fe
fb
13
00
09
ff
05
f3
07
02
ec
f3
12
0d
f4
ef
25
0c
f8
f7
22
0c
f7
f8
14
0b
fc
f2
01
0f
04
e1
f4
0f
0d
ec
f2
06
06
c3
e6
20
09
d2
f0
f8
fd
f7
fa
ff
01
03
02
04
07
04
0e
01
13
f4
17
fa
11
f0
17
fd
04
e7
1d
f9
fd
ed
1d
0b
fa
ec
1c
11
0d
fb
02
00
01
0b
f4
09
ff
04
ec
02
ff
0d
cd
f4
0e
eb
cc
fb
f6
f6
f7
09
f5
05
fc
03
0a
fb
05
07
04
f6
06
ee
01
f1
0f
da
fe
ea
23
e7
04
e5
2a
03
1e
f3
1e
ff
29
02
fe
f9
1b
14
f7
ef
0b
27
f4
f9
fc
27
f5
fe
07
e9
d3
d2
e1
06
dd
f9
05
0f
fe
fc
0d
ec
00
ed
11
f3
fc
ed
17
09
0f
d6
12
16
00
d3
10
ff
04
00
20
f2
14
0c
1f
ed
0e
ff
14
f9
13
f7
00
fa
0c
e4
f4
ce
f5
ef
f6
07
f7
f1
f8
07
fd
00
fd
fc
f9
f5
09
e9
00
e9
01
f0
06
ef
f9
0a
ff
d2
08
0d
06
e7
0d
06
0d
0d
1a
f3
1f
01
18
e2
11
05
0a
e3
25
ff
01
e1
16
e9
e6
d5
03
e1
ea
ff
e1
f2
fa
ff
fb
03
12
00
06
ff
f3
f9
f9
f1
e5
ce
0d
f4
e5
cf
0f
ee
e3
e1
2a
ed
ed
e7
1a
fe
fb
d6
2d
05
f4
d6
26
0e
fc
eb
10
09
00
f2
fd
05
03
f0
ea
16
05
00
f2
0a
04
fc
fb
1a
f7
0a
0f
06
f4
01
fd
f5
f2
e9
09
f9
f3
df
1c
f5
e8
d0
23
04
e5
d6
35
12
f4
d9
2c
07
fa
f5
18
0c
08
02
03
06
f4
04
f2
02
02
10
d9
fc
09
06
df
ef
f6
ff
eb
05
13
0d
ff
05
09
05
00
0b
f6
f4
13
0d
e6
e5
0f
05
ee
d7
19
0f
f9
d9
18
09
fe
ef
10
13
14
ef
16
0d
12
02
f4
04
02
0a
e4
fa
02
12
e8
07
f7
f8
ec
f6
f9
00
f4
0c
ed
04
f3
ff
18
fd
05
00
04
fc
0c
0b
0d
ec
0f
14
f2
e5
11
03
fb
e6
01
06
0f
ea
09
0c
16
f9
09
06
0a
10
f5
f3
0a
0e
f3
f5
f5
1b
e5
ed
f6
eb
e7
f7
fd
00
fb
16
08
20
11
0f
0d
fe
0d
0f
f9
04
07
13
0e
fe
16
03
0c
10
0b
06
10
02
0b
fb
14
ff
0a
f6
0d
fd
01
ee
07
00
f8
f6
05
ff
fd
eb
ff
03
f2
f7
fc
ff
fe
fc
fd
00
fd
ff
09
0c
03
0c
12
04
11
1c
0c
03
15
37
0a
fc
13
2b
04
f4
0e
28
0b
fd
16
09
14
fc
10
f5
09
06
ff
09
0f
09
0e
e4
f6
15
04
f1
09
f5
00
f9
01
00
00
00
00
00
00
00
00
00
00
fd
00
fe
fe
f2
fd
e8
fe
e5
f7
db
ff
ed
f9
e3
00
de
fd
e5
00
f1
f2
ed
f0
ef
f0
ea
e7
dc
f1
e7
fd
f8
f9
ff
fb
ee
fb
f3
f7
f7
fb
fe
fc
00
00
00
00
00
00
00
00
f4
fd
f3
fe
fb
fa
fa
f7
ef
f2
eb
f0
de
fc
fc
fc
ee
fa
0b
fe
ff
11
18
f6
ed
0c
0c
e2
f9
fc
09
fc
e5
01
29
f5
25
ff
00
f0
18
07
07
f5
04
ff
fa
03
fb
00
fc
00
00
f1
ff
04
0e
02
0f
f5
0d
08
1b
04
03
07
1f
02
f7
f2
21
eb
fe
f5
32
c7
ea
01
41
a7
e4
03
3e
be
e0
e6
31
ce
f0
f7
28
f8
fd
0f
1d
1c
0b
03
11
fe
02
ff
02
fe
19
f2
0a
07
10
02
04
0c
0d
fd
0d
00
06
ef
25
ed
ec
e9
26
c1
ea
d3
38
ad
df
e9
40
ab
eb
f6
36
a6
f1
03
3a
c5
ec
02
2d
d9
01
fa
25
f7
0f
0a
1e
08
0a
fb
04
fe
f4
01
02
fa
04
00
ff
f5
0d
f5
18
e2
03
f1
1f
e0
f8
f2
2b
d7
d4
dd
20
cf
e8
e8
37
d4
f5
03
21
c1
f1
02
27
d7
ed
ff
10
ef
e7
ef
02
02
09
10
ff
01
f5
0e
03
0b
03
e5
f5
02
04
e9
0f
e6
11
fe
11
f2
0e
09
18
ff
0e
0f
1f
e8
e5
de
0d
d3
ed
d6
1c
e4
f8
05
19
cc
ed
f4
1e
e4
ed
f6
22
fe
e0
e0
e8
f6
f1
f0
f2
f0
f1
02
ee
f5
02
ef
07
ed
0a
05
09
ff
13
12
01
04
10
0b
fd
fa
0d
13
fc
03
f0
de
ed
17
07
e8
03
e8
0f
0d
07
f9
05
11
12
08
04
16
0b
11
f1
fe
dc
07
fd
fc
00
01
f8
fd
f8
fe
fe
fc
f8
0f
08
02
f5
0b
0a
14
03
03
0c
fe
f2
f7
0c
0a
e9
11
07
f6
f5
17
0c
11
05
10
19
13
f2
06
06
13
fa
08
fc
06
0c
04
fd
f7
f1
f2
dc
e9
03
de
0b
08
fb
05
f9
00
ef
f8
fc
00
03
05
04
fe
f5
f7
09
fb
e0
fc
01
04
ed
fb
13
05
f4
00
17
10
f8
07
0c
08
e7
fa
0c
07
ea
0f
0e
0b
e8
09
00
fc
fa
0c
e5
ef
fd
ea
0f
02
0f
08
fd
fc
02
f9
fa
ff
05
ff
fa
fe
04
02
ee
ff
0b
ee
f2
0d
09
ec
06
fb
fe
ef
06
fd
f4
01
fc
fb
eb
f5
f4
0a
cc
0c
04
14
cc
07
e3
f5
dc
e1
e1
e4
00
ed
f9
07
05
01
0c
f8
e8
fd
f3
0e
05
fe
eb
02
13
f6
ec
e9
16
dd
e8
f5
05
de
e7
08
0e
e4
ec
fe
05
fb
f3
fa
13
f9
fc
f3
0a
0f
0f
fd
fe
1c
f6
f9
03
07
e8
f0
00
ef
00
fe
fd
ff
01
fc
f1
f6
05
f4
07
f4
02
ee
fc
f0
f4
f5
08
e3
f6
f6
0d
f2
f7
f2
1e
f3
f6
e8
25
f8
11
e4
2c
08
05
f1
1d
06
09
08
0d
0e
fc
ff
0e
01
f2
f4
00
f3
00
00
00
00
0c
ff
06
06
02
0f
06
09
e2
10
fa
f0
fe
08
08
00
f5
fd
f8
f2
e8
ee
fc
f2
fe
f7
01
f2
ed
f6
f4
f4
f7
0e
01
f7
ed
07
00
f2
0a
0c
01
06
fe
ff
00
ff
00
00
00
00
00
00
00
00
00
00
00
00
ff
00
fe
00
f7
01
f9
00
f8
ff
f6
00
fd
02
01
ff
fc
06
11
ff
1f
04
17
00
1b
04
05
01
fb
0a
0b
02
ff
fb
f5
00
01
01
07
00
00
00
00
00
f9
00
f4
00
f1
00
f6
01
08
fe
0d
f9
15
fb
13
fc
f9
fd
fe
e9
08
04
13
f8
19
04
14
01
0d
0b
16
09
01
0a
15
19
04
ff
08
14
15
fc
22
0f
1a
0d
05
0c
fc
00
fe
00
0a
f6
08
f5
05
fb
06
fb
0a
fe
0e
ef
07
0b
0a
df
fe
08
fe
ec
f1
02
f2
fc
f9
0a
ff
15
f0
06
11
15
ef
fc
18
1a
df
f7
28
26
ec
ef
28
24
16
0c
0b
32
ed
fc
f0
fc
f4
f5
06
ef
fc
f3
03
f0
07
fe
fd
e3
ff
fc
f5
e7
fa
08
f3
fc
f1
04
e4
10
e9
01
d0
3d
fd
09
c3
3a
f9
05
d8
49
f8
01
fb
32
f9
f7
08
2a
ff
0b
15
35
ee
f8
e4
f7
e8
03
02
f5
fb
f2
05
e7
0d
f3
0d
f1
ff
fe
03
ec
ff
07
fb
0d
f0
f1
e2
11
ee
d4
b8
2a
08
f3
a4
49
03
f1
81
48
05
00
ae
31
24
10
e0
43
2c
21
0b
3b
f1
f9
e8
f7
f5
0b
01
fd
02
e6
f9
0c
fa
fb
f4
01
03
01
04
f6
0e
04
06
00
06
f4
fb
19
f4
df
dd
2b
05
e2
aa
3a
0f
f4
9b
23
fc
ff
85
23
0e
11
96
2e
2e
1f
eb
3e
fe
ff
f8
fc
e8
f7
ec
01
eb
f2
e9
0d
f1
f4
e3
18
fe
03
ff
14
07
fc
09
0d
0e
fd
02
1e
fc
dd
ef
10
01
e6
e3
0d
0a
f0
ce
fb
04
f8
c4
fd
03
f2
ce
ff
fe
ff
ef
00
f6
fe
f1
07
09
f9
dd
04
f4
ff
e0
1c
fe
e7
d7
2b
fc
f1
d9
37
06
ed
f0
20
fb
ef
fb
16
f8
e8
03
f7
fd
ea
10
fe
00
e9
f9
fd
01
f4
03
f5
fb
f4
15
06
ff
02
fd
09
f5
fe
f4
f2
14
11
fb
04
0f
ef
e4
23
fc
e6
d9
2d
10
e6
de
3d
03
f8
e5
25
ff
ef
02
0d
01
f4
0e
05
01
f7
0f
02
f9
01
14
ec
fc
f2
09
fb
ff
fb
0b
f0
00
08
00
f7
fb
fb
f6
09
10
08
eb
02
0d
0b
f1
15
12
ee
ef
1d
04
f2
e1
1c
03
02
e4
16
04
04
f7
12
f9
09
0b
f7
09
fb
18
f3
01
fb
20
f6
ff
fb
1b
e1
04
06
0e
fd
0b
03
fc
eb
fe
03
f6
03
f4
0f
fe
f3
0f
15
f0
07
08
16
02
14
02
14
05
14
02
0b
07
19
fa
0c
ff
0e
02
02
0a
00
fc
07
11
ff
04
05
16
f1
fc
0f
0d
f9
14
0d
14
02
07
0c
00
f2
09
03
0b
01
12
fd
04
01
04
00
f5
f6
11
fc
0c
01
0b
04
06
13
04
17
04
15
ff
09
03
0d
fd
07
06
00
ff
03
ff
f3
f5
01
0a
ee
07
07
12
00
07
0e
21
fa
18
13
00
19
01
06
0e
07
08
f7
f1
f7
04
13
01
03
f1
15
f1
00
0d
ff
f6
06
1e
11
07
11
16
1a
ea
12
1b
0b
0a
0b
0b
05
ff
14
18
fe
08
10
0f
fb
17
0d
11
06
08
0f
03
00
00
00
00
00
00
00
03
00
02
02
12
03
1d
02
17
09
14
01
16
0d
13
03
18
03
13
fc
0a
06
1b
01
ff
06
12
ee
0a
04
11
07
0f
10
16
11
20
09
19
0d
0e
09
08
05
fd
ff
f8
00
fe
00
fd
fd
0a
03
0f
02
06
08
07
07
05
0f
1c
ff
08
12
29
e7
f6
0b
13
e7
fd
09
11
d3
f8
fd
0f
e0
01
06
1c
ff
08
1a
23
f1
06
04
17
fd
16
0f
08
02
ff
ff
02
ff
ff
fe
fd
fe
00
09
02
01
07
02
05
03
f2
09
12
f0
f3
07
03
dc
e5
f2
0e
ac
f1
09
12
d7
e8
09
07
e3
eb
0f
fb
f8
f8
07
f1
fc
03
03
f9
05
10
02
e6
08
16
14
f6
ef
00
00
00
00
ff
ff
09
f0
fd
f1
0e
dc
fb
04
16
ce
ed
fc
15
d4
eb
01
0d
c6
d7
04
08
db
c9
fb
00
f1
cb
f2
d9
13
ec
f7
e6
1f
f7
ee
da
27
e6
f0
e6
29
07
03
fa
09
f7
00
f9
fc
f9
05
f7
f5
f2
f9
01
e9
01
11
1c
ee
f4
f8
0f
d3
f4
02
07
b8
e2
0a
0c
c8
c8
ef
03
fc
c6
d7
f1
1a
ea
f6
e2
24
fd
09
b0
25
fb
e8
e5
ff
ec
ef
ef
e5
f0
fe
e9
f9
00
f1
03
01
00
0b
16
e8
00
01
1a
db
00
fd
12
c9
fd
03
0b
c3
e5
07
fd
d0
dc
de
fd
0b
e6
d5
e6
23
fd
f6
cc
20
1a
f8
e3
18
1b
fd
15
15
f5
01
d9
d3
fb
f7
ec
f6
01
e4
08
ff
05
01
11
06
ff
01
18
d8
06
05
17
c8
04
13
0a
cf
fe
04
07
e6
f7
f8
0d
13
ff
ec
eb
12
07
fe
ea
0e
14
17
0e
0d
21
14
0f
f7
fd
fb
fd
da
00
fd
fc
fd
f7
de
05
fb
04
07
18
fc
03
04
17
ea
00
01
17
d2
09
1b
13
d3
10
15
15
f4
06
01
1a
f7
02
f9
0c
03
0b
0c
14
11
05
04
f8
02
07
ff
0a
e2
fd
01
f9
ee
00
00
00
00
e9
fb
06
f6
04
ff
07
fa
fd
01
10
fd
00
01
1b
f1
08
0e
1b
eb
f8
fc
fd
da
04
01
07
f7
fc
08
11
12
fb
01
ff
11
f7
fd
19
f5
fc
07
0a
09
02
05
02
ff
ff
00
ff
00
f5
ee
f3
f5
f5
f3
05
03
f9
0a
04
ff
14
05
17
02
11
fa
03
12
03
f4
f8
16
08
12
ff
17
0a
06
05
1b
01
fd
06
02
f7
fd
0b
fa
01
09
07
fe
f6
02
01
f8
ff
ff
fe
ff
f3
07
ef
f9
e9
f0
f5
f5
03
f2
f3
07
0e
ff
f2
00
1c
05
0b
13
27
00
fd
1c
1b
12
fe
0c
0f
12
06
13
fc
04
07
f8
01
01
f5
f9
01
04
f6
05
00
04
01
02
00
00
00
00
00
f9
f7
fa
f3
dd
d7
d2
fc
f4
0a
f1
f8
09
f3
fb
0b
f7
e2
fd
17
fc
e7
05
03
fe
d1
0d
ff
02
bd
fc
16
05
dc
12
02
f2
e6
f6
f4
ed
fe
e8
ff
00
00
00
00
00
00
00
00
00
00
00
00
ff
ff
ff
00
f5
f4
f7
fd
e9
ec
ec
f8
e3
ed
e7
f8
fc
03
fa
f0
10
f7
08
06
10
f7
0d
fd
f9
f7
fa
fc
fe
00
fe
00
00
00
00
00
00
00
00
00
00
00
00
00
00
00
00
00
00
00
00
ff
00
fe
00
ff
00
fe
00
fb
00
fd
00
fc
00
f8
00
fd
00
fc
00
00
00
ff
00
00
00
00
00
00
00
00
00
00
00
00
00
00
00
00
00
00
00
00
00
0a
00
02
00
f8
fe
fe
00
01
09
07
fd
c5
fd
dc
ff
d7
f0
f0
f6
eb
fc
f9
fa
e9
f9
f2
fc
cc
f7
e2
fc
d3
f3
cd
00
f0
fb
ef
fc
fa
fd
fa
fd
ff
ff
ff
00
06
00
06
00
ff
fe
ff
0e
07
15
ff
25
03
27
fb
1f
09
12
08
25
02
f7
fe
3b
f3
f4
f6
1f
ff
ff
f7
07
04
0b
fd
03
f6
f0
07
f8
f7
f2
07
eb
eb
fb
ee
fa
f2
f8
f9
fe
0b
ff
0a
06
09
07
f9
0c
14
f6
ff
23
14
00
f5
23
17
f8
f8
28
15
04
fe
13
0b
fa
f6
08
12
0a
f1
00
14
1d
06
f9
0b
15
f7
e6
0a
0f
0f
e0
02
fc
0e
f2
00
f7
06
fa
04
1d
08
0c
08
f3
fa
13
0a
eb
e2
01
1c
f4
d7
26
15
ff
dc
1b
25
0b
e9
fb
1e
19
ec
f6
1c
2c
fc
f7
17
28
0c
05
08
09
12
e8
0c
0b
16
f0
fa
06
f1
e8
ea
f9
10
03
1d
f9
06
fd
08
05
fe
0e
16
f3
f7
0c
0c
04
f7
00
0a
00
e6
06
01
05
d1
f7
07
0b
03
ee
1b
2f
15
f5
07
2b
14
fe
f3
05
f8
0a
f8
0f
fe
01
f2
ff
cc
01
ea
f9
0b
fd
27
0d
1d
24
10
0f
fa
14
fd
0f
f8
03
f1
1b
ed
05
ec
1e
fb
14
dc
fb
ff
e4
d7
d9
16
b4
09
13
0d
fd
0e
10
0e
17
02
01
13
16
05
f4
15
01
f9
f6
06
ed
fc
03
f9
18
07
12
0a
10
f1
14
09
03
f9
1c
03
f7
fb
1b
19
ff
de
1d
2b
ff
ce
d6
15
dd
f1
d5
05
b3
10
07
09
e8
0a
1e
07
12
11
1c
0d
1e
05
08
fc
f8
fc
11
fa
ec
dc
eb
07
de
f2
01
f2
f7
07
f3
05
ff
01
0c
0a
00
ed
1f
26
ff
dd
0b
25
e5
d4
d7
15
d4
f3
ea
03
f4
07
0e
06
ef
18
10
f1
fd
1d
07
f4
0d
03
06
fa
fc
ee
f6
f0
ed
fa
ff
fd
fe
fc
f6
f0
f9
f0
1c
04
12
ed
fc
e8
fe
e5
00
14
fb
e8
ee
0a
e3
e2
ec
1b
d6
fb
01
0a
e4
fb
f9
f3
ef
ef
00
f6
e1
04
09
e5
0b
f4
02
c5
f6
f3
e7
01
e3
02
fe
fe
01
f3
fc
f3
fc
fa
db
ff
e9
05
e8
10
ee
f7
fb
09
e2
e5
07
07
e0
ee
06
19
d5
ed
fb
11
e1
f3
ea
07
d5
f9
ea
f2
e8
ee
f8
ef
df
e6
f8
fc
f4
d4
e8
f2
d7
06
02
ff
ff
00
fa
f3
fa
08
09
16
07
00
09
13
0b
e6
1c
13
ed
f1
fe
10
e6
ec
01
0a
e0
f0
ed
1b
ee
f1
f3
18
f5
ec
fe
0d
f0
f2
f8
ef
d3
e7
f4
f6
e4
de
ea
fa
dc
00
00
00
00
00
00
01
00
f4
14
06
0e
04
0c
06
10
0e
f3
20
10
f6
ef
1b
05
f8
f6
23
f8
ff
f0
20
fc
fe
f2
26
ff
01
e6
28
f3
ff
fa
0c
fb
0c
fc
17
f8
fe
fa
fd
f5
00
00
00
00
00
00
00
00
00
00
00
00
00
00
00
00
fb
fd
f4
00
04
ff
06
00
f9
00
f2
00
f6
02
f7
00
f2
fa
f0
ff
f0
01
f5
ff
ea
f9
e9
00
fe
fc
fd
00
fc
01
01
00
00
00
00
00
00
00
00
00
fc
00
fc
00
0c
ff
01
fc
fb
fd
fd
f2
fa
fb
fc
01
01
09
01
04
fb
e8
ff
05
02
03
f9
11
ff
0c
f9
05
fc
f2
fe
19
ea
04
fb
1a
f3
f3
e7
08
03
02
05
fe
ff
00
ff
00
f7
fd
fd
f5
f4
ef
06
d8
f6
09
0d
03
f8
07
06
e8
03
0c
ff
09
0a
04
f7
fe
05
06
f9
0f
08
f2
ff
11
08
02
ff
0f
03
fd
ee
1f
ff
f3
1a
06
f8
fc
01
0d
01
ff
fe
fe
04
f2
fc
01
00
02
0e
f1
09
05
04
fb
fb
08
05
f5
05
04
00
03
f3
0c
fd
07
fd
ff
fe
0e
04
f2
f6
0c
05
06
fc
0e
02
fd
f1
05
08
06
05
06
01
f8
fb
e6
fb
ff
fd
ff
ee
f6
09
fd
05
fe
fa
fc
04
05
01
f3
18
05
04
f9
0e
f8
06
0e
09
01
fd
0f
ef
fc
06
0d
ef
fb
14
08
08
00
07
13
09
08
0b
08
0d
06
20
fb
09
00
f3
fd
fa
fa
fe
fc
03
e8
ff
09
09
ef
fd
07
11
e3
f5
01
14
ed
ea
0c
22
de
fa
16
18
fb
fd
05
0d
0c
fe
ee
f7
0a
07
06
f8
09
10
09
f2
0c
25
06
07
06
29
ed
0e
09
e9
f2
fb
ff
01
ff
ff
f7
fe
f8
fa
f7
ee
fc
0e
e3
e7
03
27
e7
ea
01
1a
e5
f1
0a
0d
f4
f2
ee
fb
06
f8
ff
f0
0c
ff
12
ec
06
ed
19
fb
f8
de
0d
f7
fa
ef
04
04
0c
fa
01
fe
fd
fa
ff
e1
17
fb
02
14
f6
0a
ff
05
01
09
ef
0c
04
08
e2
0d
05
04
eb
0c
09
f6
ed
fe
01
e5
12
f5
f8
ed
24
ff
e7
d8
19
f4
f2
d8
19
fe
f6
e7
fb
f9
ff
fb
ee
f5
01
f8
00
fc
fb
f8
fb
f7
1a
0f
e4
f7
0c
19
d7
fb
1e
1a
d9
00
0e
20
e9
f5
ee
02
f7
03
ed
f7
1b
10
f0
ef
20
07
f2
fd
f9
01
eb
f8
eb
0b
0b
03
e9
08
06
fd
f6
ee
f2
ea
fb
ff
ee
09
fe
01
07
13
ea
f4
16
14
df
ec
1f
1f
e9
ea
ff
19
e6
fa
e9
18
fd
04
e4
0e
19
00
f0
09
08
04
fa
09
dd
07
f3
09
ed
03
08
12
f7
f4
f5
ff
f4
f2
fe
e9
f8
ff
eb
02
f8
ff
e8
04
fc
fa
ff
0a
00
f9
f1
09
f9
fc
ee
0c
0c
0b
f3
13
10
fd
fd
0f
11
fc
f2
0f
ff
f5
f8
0b
fc
f9
06
0a
f9
0a
0b
ec
ee
df
e9
ff
e6
ff
fa
f5
fb
f0
e5
fd
fc
f7
f7
f4
f8
0b
ea
e6
fb
08
fa
e2
fe
15
fa
f7
07
18
0d
f4
07
11
09
0e
03
f9
04
08
fd
01
04
10
fe
01
00
f8
ff
06
03
ef
16
f6
fa
00
f7
00
ff
ff
00
f0
fc
ef
e7
f3
e6
f2
e9
f3
f8
d8
f9
0c
08
e0
05
03
07
cd
05
0b
ff
ce
ff
1d
ff
be
10
02
03
e7
f6
07
13
cf
0d
f7
fd
ea
f4
f5
fb
fd
fa
ff
ff
00
ff
00
00
00
00
00
00
00
00
fd
00
fe
00
fe
ff
fc
00
f5
fe
f9
ff
e9
fc
e3
fc
ea
fc
e5
ff
ed
f3
e6
f1
f1
fa
fb
fa
fb
00
fa
00
ff
ff
fe
ff
00
00
00
00
00
00
00
00
00
00
00
00
fc
00
fe
00
f7
fe
f6
fe
e9
fe
ea
fc
04
f2
f1
fd
08
eb
06
ee
e6
de
db
ec
eb
e0
ce
f9
f6
ee
e3
f8
ed
fb
f3
fd
e3
00
f9
fd
fb
fd
f7
fd
00
00
00
00
ff
00
ff
00
e6
00
e5
fd
f9
f3
00
f8
09
e8
00
d7
fe
f9
fb
e6
ff
0b
f4
fc
05
01
f4
1b
09
f2
ee
2d
0a
fb
f0
2a
13
fc
dc
07
07
05
e6
df
f0
f5
ea
d9
ed
fa
fd
fb
01
ff
fa
fe
fe
f6
f9
e5
ef
12
0c
ce
ea
15
08
e6
f3
12
00
f0
07
1c
04
0a
15
28
11
16
16
20
03
0f
0e
0b
fb
0e
ff
f3
ec
0c
04
fa
dc
0b
fc
ec
c8
d8
09
0b
e8
f3
01
fa
fb
01
05
05
11
f6
02
1b
1a
ff
fb
1d
1a
e7
01
18
17
e8
ff
10
17
04
fb
fc
0e
12
03
f4
fc
10
0d
f9
03
08
09
01
fd
02
0c
fc
fd
ff
f1
00
ef
e9
01
07
fb
df
fb
fa
fe
06
01
04
1e
f1
03
0c
15
f4
00
11
0f
ed
0b
0f
15
fb
05
0b
0d
14
fc
f0
0d
19
11
e9
04
fa
29
02
fb
f5
1f
0f
0b
d3
1f
06
05
d6
0e
fd
fa
e3
f2
f5
f9
fe
f8
f3
02
f4
fe
01
18
08
07
f4
0c
f8
07
f5
05
f4
01
ee
f5
0f
fd
ef
e6
14
05
12
03
21
0f
06
fa
ff
1e
0c
f7
d0
14
06
12
c6
0f
0d
0d
dc
f4
01
e6
d4
e7
e8
ff
e3
fd
f1
0b
fc
0e
ef
fd
fd
f0
ec
f6
ff
ff
e8
f4
fc
13
e8
db
18
09
fd
e2
32
f1
0e
f7
16
fc
f9
01
f9
09
14
fd
de
fe
09
10
b9
03
0a
15
d3
e8
f4
eb
ce
d4
ea
00
e7
ef
f1
fd
fa
e5
00
f4
f1
01
eb
ee
f4
08
dd
d8
0a
22
e6
c8
23
18
0d
de
28
f7
02
00
12
f4
0d
06
f4
fa
01
04
cd
f7
00
ff
c4
f3
05
04
dc
e8
f7
eb
d4
dc
eb
05
f7
eb
ef
f6
fc
f9
ed
f8
ed
ed
00
f7
f2
08
fc
e9
0b
0b
f8
db
1a
ff
fa
df
1c
e9
ff
03
06
ea
ff
07
e7
e9
f0
03
e1
f3
f9
06
e2
f0
f6
e8
d6
f8
ed
08
ef
00
ff
0a
01
fb
fd
fc
f9
e6
07
07
01
0c
ee
f5
04
0e
f1
fb
00
08
01
f7
fb
0b
05
fd
fe
08
f5
07
e4
ee
f0
fe
e3
ef
f5
f9
ec
f3
f6
ff
ee
fa
f0
e6
f3
07
0e
19
13
14
11
01
0c
ff
00
01
01
02
f0
f8
f9
01
f5
f4
f9
ed
09
ff
fd
f9
09
07
f9
f2
00
fd
ed
f5
f3
f3
ee
f7
f9
f8
f5
f8
f8
f1
fc
f9
fd
f6
09
01
ff
04
fa
1e
18
0d
19
0f
0c
fe
03
00
ff
fe
ff
17
fd
24
15
01
04
17
04
0e
03
17
0c
03
06
17
0f
fd
f3
15
06
ff
f2
28
fd
f3
f5
21
fb
0d
fd
16
ff
12
f6
23
0e
18
06
00
1c
04
02
fe
0b
01
00
00
00
